#version: 0.2
e n</w>
e r
t h
e n
i n
a n
a t</w>
o n
e l
e t</w>
a a
s t
d e</w>
a l
th e</w>
o r
i s</w>
e r</w>
o u
a n</w>
i j
a r
a t
i t
c h
i n</w>
r e
d i
in g</w>
o o
e en</w>
o f</w>
t o</w>
l e
g e
b e
i e
r o
an d</w>
v er
o m
h et</w>
d e
h e
v an</w>
w e</w>
en .</w>
i s
aa r</w>
d at</w>
i l
w a
i c
i t</w>
t e</w>
n o
h a
th at</w>
o u</w>
w h
e s
in g
e d</w>
l i
o n</w>
a c
z e</w>
' s</w>
m e
u s
v e</w>
o l
o p
t i
w e
j e</w>
d er
en ,</w>
u n
? ?
n d</w>
i g
o e
r a
y ou</w>
u r
th e
m a
- -</w>
al l
a l</w>
A nd</w>
d en</w>
ij n</w>
i k</w>
s ,</w>
s .</w>
s e
t er
o r</w>
w er
t e
wa s</w>
di e</w>
k e</w>
a b
n e
l o
s ch
oo r</w>
m en
l e</w>
p ro
d o
a s
t .</w>
m o
s p
i j</w>
t o
T h
u l
w or
at i
a m
n i
th is</w>
t ,</w>
o p</w>
d ,</w>
d .</w>
o or
e ,</w>
t en</w>
ou t</w>
e c
al s</w>
e s</w>
c om
ar e</w>
r i
o m</w>
z ijn</w>
v er</w>
aa n</w>
aa r
t s</w>
g o
e .</w>
ni et</w>
e l</w>
u t</w>
p l
s i
h o
er e</w>
g en
m et</w>
r u
y ,</w>
I k</w>
k en</w>
c on
p er
g el
s t</w>
v oor</w>
ha ve</w>
f or</w>
z e
d a
d en
W e</w>
d u
ij k</w>
s a
l d</w>
i r
t r
all y</w>
w it
m e</w>
l a
y ou
v e
z i
H et</w>
g en</w>
v en</w>
en t</w>
o ver</w>
t u
he b
e x
wit h</w>
s e</w>
' t</w>
al l</w>
a s</w>
b e</w>
g e</w>
a p
s en</w>
p e
h i
w at</w>
g r
on e</w>
n en</w>
the y</w>
s om
an d
el l
u it
ab out</w>
E n</w>
e f
wh at</w>
l y</w>
k un
c an</w>
b en</w>
y .</w>
ij k
a an
an t</w>
ro m</w>
f or
s u
t a
ch t</w>
on s</w>
h u
e m
ou ld</w>
di t</w>
b o
r e</w>
s o</w>
n aar</w>
m an
p o
oo k</w>
de ze</w>
. "</w>
i d
t er</w>
no t</w>
u s</w>
ig h
ver y</w>
i m
e er
st e</w>
d er</w>
ij n
ic h</w>
i k
' re</w>
k no
us e</w>
us t</w>
c a
i e</w>
w il
an der
c h</w>
I '
d o</w>
m aar</w>
d an</w>
t w
v oor
th er
ha d</w>
v i
v ol
pe op
z o
g a
th er</w>
f f
heb ben</w>
th at
n ie
?? ?</w>
f rom</w>
it 's</w>
S o</w>
c i
st e
r ij
ie s</w>
i d</w>
h e</w>
m aa
k ing</w>
th ing</w>
m y</w>
w ,</w>
li ke</w>
c e</w>
ou r</w>
t el
y e
ge b
q u
ing .</w>
p re
ing en</w>
m or
p ar
es e</w>
k om
h er
D e</w>
g ro
Th e</w>
j ust</w>
k in
k el
m ijn</w>
d oor</w>
th in
k en
b ut</w>
kun nen</w>
z el
men sen</w>
t en
s el
d s</w>
k e
ou g
peop le</w>
p p
A l
i f</w>
e st
al le
m oe
u it</w>
a f
on der
ati on
h el
ho w</w>
d el
B ut</w>
go ing</w>
th ese</w>
ing ,</w>
M aar</w>
D it</w>
st u
com p
f e
w ar
pro b
b l
w i
o ver
c re
k an</w>
in ter
v en
b el
b r
t 's</w>
w aar
el d</w>
o ,</w>
at e</w>
i de
g ra
is ,</w>
ou n
m er
s y
b y</w>
m in
a d
i r</w>
b u
0 0</w>
be ca
l an
s en
wh ich</w>
er en</w>
t ij
is .</w>
W h
beca use</w>
g et</w>
z ijn
th ere</w>
d on
Z e</w>
D at</w>
ye ar
u p</w>
som e
ati on</w>
k .</w>
on t
be g
m il
ve el</w>
p a
wh en</w>
w ant</w>
Th is</w>
a r</w>
i st
in e</w>
I n</w>
t ed</w>
k ,</w>
ge v
s h
d en.</w>
b ij</w>
is ch
m u
h ij</w>
t ing</w>
am e</w>
z ou</w>
thin k</w>
e p
s it
w ould</w>
t ur
ij ke</w>
s c
k t</w>
st a
es ,</w>
re ally</w>
se e</w>
N o
g een</w>
you r</w>
I' m</w>
b i
th ing
w aar</w>
lo g
T he
t al
es .</w>
er s</w>
mor e</w>
I t's</w>
ef t</w>
s o
n 't</w>
ou r
at en</w>
a u
igh t</w>
es t</w>
d r
e 's</w>
o ther</w>
z o</w>
wer e</w>
ac tu
m en</w>
st ar
l u
a ,</w>
m .</w>
the ir</w>
?? n</w>
wh o</w>
ha s</w>
w el
no g</w>
aa l</w>
ho e</w>
er .</w>
g i
er ,</w>
t h</w>
l ijk</w>
it .</w>
isch e</w>
me er</w>
hu n</w>
prob le
st r
ti on
a ch
l oo
wh ere</w>
Y ou</w>
som e</w>
f in
J e</w>
e t
that 's</w>
don 't</w>
it y</w>
ou w
g o</w>
w at
oo d</w>
k en.</w>
on ze</w>
zel f
j aar</w>
m at
p r
th en</w>
in to</w>
to t</w>
w n</w>
l it
c en
li e</w>
f ac
te ch
b ac
w ij
g re
Al s</w>
k s</w>
i er</w>
t ra
ie ts</w>
pl an
du c
t we
a .</w>
v el
ou nd</w>
wil l</w>
the m</w>
I t</w>
c o
t re
D us</w>
v o
i z
zi en</w>
b er
ze g
di g
as t</w>
at u
he eft</w>
actu ally</w>
ha pp
I n
n u</w>
wa y</w>
i c</w>
st or
v r
S o,</w>
en de</w>
k le
ul lie</w>
u r</w>
kno w</w>
ch t
g an
hi er</w>
ander e</w>
he id</w>
l en</w>
j ec
p le
d ing</w>
g u
m ,</w>
t ie
p or
he b</w>
t ic
i d,</w>
m ar
r on
b een</w>
nie u
ch an
e en
ma ke</w>
h oo
wor d
m is
v an
st er
c ould</w>
h ou
th o
g er
geb ru
t le</w>
no log
ti me
v in
w an
' ve</w>
l ie
j ullie</w>
kin d</w>
oo n</w>
s ig
ti on</w>
go t</w>
s er
en d</w>
di ff
m on
o c
ati e</w>
z on
g aan</w>
al e</w>
oug h</w>
t ro
thing s</w>
o f
m an</w>
h ar
il l
tech nolog
v ing</w>
oug h
sp ec
tij d</w>
d ingen</w>
p en</w>
aa t
r el
f ir
m b
f u
moe ten</w>
aa l
g en.</w>
z al</w>
ig e</w>
p h
H ij</w>
a d</w>
li f
A f
zijn .</w>
he el</w>
j o
h al
lit tle</w>
on .</w>
om dat</w>
men t</w>
com e</w>
n u
t oe
. .
at 's</w>
di g</w>
e ig
e ven</w>
aa g</w>
ab le</w>
v or
on ,</w>
W at</w>
mo st</w>
g ing</w>
e cht</w>
en c
? "</w>
du s</w>
p u
th an</w>
re c
E r</w>
y s</w>
d y</w>
o g
s oor
some thing</w>
diff er
z a
m p
g .</w>
c an
H o
y ing</w>
mo et</w>
it ,</w>
l ar
The y</w>
k ed</w>
s s
wer eld</w>
in n
kno w,</w>
at ie
it e
0 00</w>
ver sch
s s</w>
C h
zo als</w>
g oe
s l
tho se</w>
?? n
v is
l ook</w>
c ar
e m</w>
tw o</w>
ti e</w>
we 're</w>
an k</w>
year s</w>
wi l</w>
d at
do en</w>
e ver
s or
be ur
fir st</w>
d en,</w>
l in
re e
s ol
wor den</w>
s ur
k an
k rij
n o</w>
c ol
?? ??n</w>
ge w
E en</w>
ti me</w>
wor l
ga at</w>
ell ,</w>
h ere</w>
l l</w>
z ich</w>
pro c
the y
st ru
twe e</w>
h an
for m
n atu
sch ap
on ly</w>
ge beur
es s</w>
i en</w>
per i
ne w</w>
lo t</w>
d ol
i g</w>
sa id,</w>
no w</w>
per s
we l</w>
o b
li g
A mer
1 9
pl a
le ven</w>
d oe
le .</w>
t en.</w>
f t</w>
.. .</w>
er g
m id
es s
N e
b as
al so</w>
h is</w>
bel an
j ar
ol og
bu il
pro duc
f i
u p
w aa
k en,</w>
d n't</w>
mu ch</w>
oo l
ver ander
on g</w>
se ,</w>
it i
n a
0 0
d an
ou s</w>
f a
No w,</w>
th r
bac k</w>
le s</w>
den k</w>
you 're</w>
maa l</w>
k o
on d</w>
ta ke</w>
b re
d ra
p ol
word t</w>
c oun
t or
gr oo
gel e
de sig
de d</w>
pl ac
de .</w>
d aar</w>
wor ld</w>
Wh at</w>
wer el
p ut</w>
W e
g ,</w>
z oe
f ec
ic al</w>
d ri
eer ste</w>
all e</w>
in ,</w>
de ,</w>
at ed</w>
le ,</w>
ever y
s le
ne ed</w>
heb b
k er
an y</w>
l aten</w>
s si
comp u
all een</w>
z ie
f il
ze i
r it
un der
der en</w>
D e
en ce</w>
man y</w>
t ?</w>
por t
un i
ma ken</w>
bo dy</w>
happ en
h oe
t y</w>
go ed</w>
ell en</w>
we et</w>
m and</w>
g er</w>
in .</w>
tu re
O n
b ij
p er</w>
ther e's</w>
s he</w>
v a
v es</w>
st em
soor t</w>
r ight</w>
zel f</w>
k wa
di c
or gan
t s.</w>
oo it</w>
th re
en erg
e i
ur e</w>
m om
di d</w>
b in
f o
on om
hel e</w>
el e</w>
ac h</w>
an y
t al</w>
sch a
gel ijk
belan gr
ter u
ol d</w>
wer d</w>
c ul
com m
ar ound</w>
s ci
f un
me e</w>
k ken</w>
I f</w>
is ch</w>
er g</w>
b en
v oe
on ge
k er</w>
war en</w>
pro jec
me an
st en</w>
s la
b ra
h aar</w>
g en,</w>
w s</w>
to en</w>
l ijk
il l</w>
e very</w>
r ic
it s</w>
wor k</w>
be ing</w>
stru c
gro te</w>
gebru ik
on den</w>
h and
ou den</w>
tr an
n et</w>
is t</w>
w .</w>
ch ten</w>
s m
W ell,</w>
k te</w>
g ood</w>
d aar
tur e</w>
s ame</w>
differ ent</w>
b le</w>
all y,</w>
vol u
n a</w>
thr ough</w>
man ier</w>
e in
op en</w>
ch il
they 're</w>
l at
c alle
sy ste
z ul
T o
re al
comp le
r an
ic e</w>
w in
h ,</w>
e p</w>
m s</w>
z en</w>
v ar
t en,</w>
ex peri
i ma
alle maal</w>
v en.</w>
v al
er d</w>
c u
A n
calle d</w>
i on</w>
b il
at e
st .</w>
sch ien</w>
ie .</w>
t s,</w>
con t
s n
t ru
kom en</w>
do ing</w>
sta at</w>
we e
m ij</w>
w n
do wn</w>
e e
st ,</w>
re s
zijn ,</w>
v ed</w>
f am
be t
Th at's</w>
1 0</w>
e a
In di
c or
li on</w>
th ough
nieu we</w>
aan .</w>
a ga
uni ver
do en.</w>
b oo
sp re
p en
g t</w>
z ouden</w>
qu est
ne er</w>
be el
vol gen
i l</w>
wi th
k ijk
p as
I' ve</w>
eig en
ec onom
s ho
t ly</w>
g in
ha d
gen er
da y</w>
p ic
le ar
f ic
el ijk</w>
d ru
k l
?? ?
st and</w>
it e</w>
el k
c ame</w>
us sen</w>
di ge</w>
t y
fu l</w>
b oe
tr y</w>
r igh
k ra
zelf de</w>
el ,</w>
ma de</w>
me ,</w>
wat er</w>
us ,</w>
he m</w>
thre e</w>
in t</w>
d re
r oo
ma k
that ,</w>
ve er</w>
f l
wer k
st an
sa y</w>
do or
H e</w>
im port
h er</w>
lig h
gel u
ri k
a m</w>
le a
oo l</w>
ik kel
er en.</w>
per c
G o
st el
c r
we ten
so ci
l ast</w>
w er</w>
ar y</w>
zul len</w>
j u
er i
c our
kun t</w>
b a
ro e
ma ch
ie ,</w>
at ing</w>
kin deren</w>
de el</w>
natu ur
ation .</w>
Th ere</w>
n am
een s</w>
en ?</w>
kom t</w>
' ll</w>
v ir
ie mand</w>
e ds</w>
c l
De ze</w>
y s
tal k</w>
o ff
den ken</w>
w oor
c ur
ou w</w>
l and
ij ken</w>
g a</w>
ar ch
S t
H ier</w>
maa kt</w>
hu man</w>
ation ,</w>
mb er</w>
se .</w>
s k
fam il
sy stem
be sch
we ten</w>
w ent</w>
kel ijk</w>
j es</w>
el e
n ing</w>
sor t</w>
comm un
w al
p ri
on tw
me .</w>
inter est
kle ine</w>
se con
lif e</w>
onge veer</w>
x t</w>
wh y</w>
br en
E n
c er
be eld</w>
en ti
ver t
el en</w>
2 0</w>
ie ve</w>
ie d</w>
versch ill
pl aat
5 0</w>
gew oon</w>
zi en.</w>
tel l</w>
ol e</w>
a ge
wa ys</w>
l and</w>
alle s</w>
ver h
on der</w>
fin d</w>
si de</w>
e d
di dn't</w>
t ting</w>
b or
u m</w>
ac t</w>
s how</w>
mil jo
in form
dri e</w>
gi ve</w>
al i
p un
wil len</w>
ch te</w>
st and
p aar</w>
v e,</w>
we 've</w>
b ouw
aar .</w>
m m
ter s</w>
a ir
a ge</w>
z or
ze er</w>
b an
le g
d ing
, "</w>
p at
be te
aa k</w>
, 000</w>
n ed</w>
g l
er e's</w>
us ed</w>
star ted</w>
p s</w>
me e
can 't</w>
wer k</w>
star t</w>
min u
f ul
ontw ikkel
sh ould</w>
be d
t ussen</w>
a f</w>
gr ij
ou l
ie der
M ar
k on</w>
V er
you .</w>
ri en
ar d</w>
us .</w>
w ij</w>
mis schien</w>
that .</w>
sa y,</w>
T E
ge ven</w>
spec i
al .</w>
be for
w is
ie s.</w>
as e</w>
er de</w>
zelf s</w>
t s
sol u
had den</w>
m i
zon der</w>
gre at</w>
bi g</w>
scha p</w>
dol lar
aa rom</w>
Ho e</w>
perc ent</w>
al ,</w>
af ter</w>
c ep
Af ric
w ing</w>
tw oor
el .</w>
da g</w>
ne t
an other</w>
it y.</w>
le d</w>
ite it</w>
der s</w>
om e
B ec
wa s,</w>
an twoor
ide e</w>
z ij</w>
Th at</w>
p le</w>
te gen</w>
Ch in
st ell
n or
gel oo
zi et</w>
hi er
verschill ende</w>
ge sch
e ar
lo c
v e.</w>
ie s,</w>
m us
M a
Amer ic
b uit
o ther
gen oe
st ri
me di
ex am
Amer ik
f er
pro gra
ou s
groo t
el ke</w>
b it</w>
k k
eer d</w>
c ap
se s</w>
le c
n ooit</w>
maa k
zeg gen</w>
aa g
th is.</w>
li m
ne ver</w>
p e</w>
sel f
ou t
con tro
ver k
ne c
' n</w>
men s
po sit
o wn</w>
Bec a
wh ole</w>
gel ijk</w>
v ie
j e
O K
s hi
ru im
del ijk</w>
ter .</w>
a go
po ssi
le ven
p ec
el y</w>
hebb en.</w>
ati ons</w>
t on
su c
it u
su b
loo king</w>
chan ge</w>
v en,</w>
i d.</w>
zei :</w>
re d</w>
an ,</w>
ma ken.</w>
v ra
doe s</w>
aa m</w>
to ge
ge d
b ro
pol it
ke er</w>
h oor
no dig</w>
p .</w>
ide a</w>
h or
ze t
ne xt</w>
m ight</w>
v and
stu den
r en
m y
om en</w>
c am
Af rik
par t</w>
her e,</w>
ch ti
c it
bl ij
st ill</w>
in cre
coun tr
do es
elk aar</w>
oc e
ie k</w>
Beca use</w>
par tic
men sel
e volu
wan neer</w>
wa s.</w>
z it
s in
eig en</w>
plan e
e el</w>
fe w</w>
Wh en</w>
te ,</w>
zi e</w>
worl d.</w>
ge ,</w>
e ach</w>
com es</w>
b li
pl aa
k ijken</w>
di sc
wa s
sch ool
organ is
eigen lijk</w>
be grij
u ro
h op
b aar</w>
t -
at or
No w</w>
Ho w</w>
si mp
re ad
man i
de vel
ch t.</w>
st op
ac ti
ef fec
the m.</w>
de l</w>
en s</w>
da cht</w>
d t</w>
plaa ts</w>
l aat
heb t</w>
mom ent</w>
her e.</w>
t ri
does n't</w>
bed rij
p en.</w>
Th ank</w>
stor y</w>
si m
. 000</w>
vi de
ste eds</w>
q uit
sa men
be tw
pu bl
ther e.</w>
l y,</w>
To en</w>
chil dr
sch ijn
2 00
an .</w>
v roe
r is
ge s</w>
N u</w>
be et
ic ally</w>
al tijd</w>
waa rom</w>
u g
k id
wa y,</w>
m en.</w>
ont de
e ver</w>
wor den.</w>
re as
we g</w>
op en
b us
Ne w</w>
jar en</w>
h en</w>
er t</w>
nie t.</w>
ber e
te .</w>
betw een</w>
M ijn</w>
2 0
suc c
of f</w>
though t</w>
j on
he 's</w>
i ken</w>
ze i</w>
miljo en</w>
mat eri
del en</w>
a g
th is,</w>
sp ac
is h</w>
an s</w>
p ra
om e</w>
mil lion</w>
c le
ar e
ab ly</w>
st re
le t
ge .</w>
?? r
ge me
l ong</w>
ing s
vr aag</w>
ch ar
f ound</w>
at es</w>
in di
he t
dat a</w>
weten schap
lo b
be st
p an
time ,</w>
si on
p t</w>
c lo
aan ,</w>
sa id</w>
wan ted</w>
y be</w>
ch ts</w>
L e
to e</w>
k or
v ij
1 00</w>
time s</w>
import ant</w>
aar ,</w>
O k
de el
d iti
zo 'n</w>
vin den</w>
time .</w>
teru g</w>
kwa m</w>
be p
ander s</w>
waa ro
ab il
th ing.</w>
ont wer
beet je</w>
la at</w>
ation al</w>
mar k
si on</w>
s lo
t :</w>
b ar
aan tal</w>
tion .</w>
p op
c all</w>
b ur
tr ying</w>
cont in
it y,</w>
d ro
k op
m oo
le id
y s,</w>
wij l</w>
s am
pre sen
dr aa
be we
en or
eer de</w>
te gen
3 0</w>
me s</w>
l ijke</w>
desig n
quest i
hal f</w>
p ie
laat ste</w>
gen s</w>
e d.</w>
all o
E ar
D ie</w>
w onder
goe de</w>
an c
wer ken</w>
twe e
mon e
ra l</w>
li k
ch .</w>
be st</w>
zo dat</w>
s ne
la r</w>
ieder een</w>
f ig
b are</w>
re al</w>
onder zoe
no em
di rec
I' ll</w>
th .</w>
li ch
al ways</w>
wil de</w>
to p</w>
res ul
plac e</w>
al s
sp e
le ss</w>
ie ke</w>
belangr ijk
the or
sel f</w>
pl ic
f ra
t op
ar i
a k
beg in
v lie
pre t
ma y</w>
h y
ge wel
k ent</w>
u n</w>
wh at's</w>
ouw en</w>
e d,</w>
we er</w>
us ing</w>
el k</w>
bi olog
Th ere's</w>
da y,</w>
s ?</w>
j e,</w>
desig n</w>
aan se</w>
st ic
sch ool</w>
pro be
ter ,</w>
p ,</w>
l on
hoo f
do wn
d in
z u
quit e</w>
p lo
ac k</w>
ob jec
com ing</w>
befor e</w>
aa m
v re
in du
ro bo
proble em</w>
li ve</w>
an g
k il
' d</w>
it ed</w>
t ook</w>
oo d
gebru iken</w>
under stand</w>
me est</w>
fo to
dol lar</w>
bet ter</w>
inter ess
The se</w>
verh aal</w>
oul dn't</w>
fac t,</w>
ach ter
v la
f our</w>
devel op
O p</w>
sp el
in tel
all en</w>
wor king</w>
b la
ye ar</w>
and er</w>
oo g
e ven
z it</w>
r y</w>
you ,</w>
il e</w>
e y
c ell
voor beeld</w>
tion ,</w>
hoo p</w>
e k</w>
mach in
ge da
f an
ge tting</w>
ta in
pr in
vi er</w>
pop ul
gele den</w>
w rit
proc ent</w>
is :</w>
f re
en en</w>
ser v
lan g</w>
ken n
gel d</w>
an s
he al
m ic
do en,</w>
re sp
pers on
ti c</w>
t om
ou t.</w>
kel e</w>
er en,</w>
I' d</w>
y ?</w>
th ,</w>
be au
wa y.</w>
i ch
volgen de</w>
s ha
v ou
c is
no w,</w>
g s</w>
em aal</w>
Y ou
bin nen</w>
ati ve</w>
zi en,</w>
mom en
moe il
cour se,</w>
si e</w>
hebb en,</w>
d om
po int</w>
d one</w>
ou t,</w>
ig en</w>
e ?</w>
M o
w on
ti ons</w>
s ing
k onden</w>
at ies</w>
an im
projec t</w>
k ant</w>
ter n
On e</w>
G e
1 0
werel d.</w>
geme en
al is
p ho
lo ve</w>
h igh
bel ieve</w>
A :</w>
on e.</w>
worl d,</w>
tel y</w>
ma king</w>
waar schijn
g lob
be ter</w>
toe kom
st er</w>
d aa
lo w</w>
groo t</w>
ther e,</w>
sle chts</w>
bus in
p i
gr ou
ac c
el ec
B e
prob ably</w>
k el</w>
fe el</w>
ti m
ge zon
f ol
con nec
M y</w>
the m,</w>
ar t</w>
to o</w>
men t.</w>
in c
h un
krij gen</w>
in st
ide e
D an</w>
you 've</w>
ma g
de zelfde</w>
li cht</w>
h and</w>
beg in</w>
ing s</w>
mo gelijk</w>
cre ate</w>
U n
nieu w</w>
mil jar
he den</w>
el ijke</w>
Y or
ver tel
el t</w>
on e,</w>
l et</w>
I s</w>
pro f
mo gelijk
l ij
ic i
ver n
po wer
p ati
S te
vi du
v rij
u e</w>
te s</w>
it ec
Z o
tal king</w>
t ies</w>
r aa
he id
ta st
o on
m ing</w>
g aan.</w>
en kele</w>
indi vidu
ic s</w>
ma ybe</w>
el l</w>
technolog ie</w>
hel emaal</w>
ge st
g ingen</w>
da y.</w>
E uro
l ab
kel ijk
m ige</w>
fi ve</w>
beg on</w>
exam ple
no v
her sen
syste em</w>
nie ts</w>
f oo
ac ro
O f</w>
L a
v il
sp ir
prob eren</w>
min der</w>
mid del
e mo
d ur
" W
hu man
hi m</w>
ver b
vand aag</w>
en e</w>
teru g
proble m</w>
le u
genoe g</w>
technolog y</w>
g oo
s ed</w>
pret ty</w>
tran s
kom en.</w>
The y
We 're</w>
op lo
de ed</w>
werel d
be come</w>
e -
compu ter</w>
belangr ijk</w>
arch itec
do et</w>
syste m</w>
m ij
c ra
w ell
O m
" .</w>
w ie</w>
b ig
te c
mensel ijke</w>
me t
in v
? ?</w>
ge we
bete kent</w>
c ou
o .</w>
men ts</w>
b le
waar in</w>
w he
s et</w>
f ,</w>
B o
st ro
rel ig
pun t</w>
nu mber</w>
men t,</w>
it ies</w>
ing en.</w>
e duc
a de
w ed</w>
tu ur</w>
k s.</w>
po in
se l</w>
ken d</w>
he id.</w>
ch t,</w>
Go d</w>
with out</w>
le ven.</w>
iz ed</w>
d s,</w>
mee ste</w>
e qu
ter wijl</w>
h .</w>
fac e</w>
R o
vra gen</w>
t or</w>
i et</w>
i de</w>
e as
aa t.</w>
wer den</w>
sch rij
st ra
s ing</w>
mo est</w>
A r
year s,</w>
te m
op er
so f
c es</w>
begin nen</w>
H e
st s</w>
k aar
er var
voe d
mean ,</w>
bi o
en ige</w>
a ma
st en
m en,</w>
een vou
Om dat</w>
sit u
pho to
in s</w>
buil d</w>
waarschijn lijk</w>
partic ul
hel p</w>
bre a
In ter
1 5</w>
th ing,</w>
resp on
lijk t</w>
ken de</w>
har d</w>
W ant</w>
D aar</w>
u w</w>
ligh t</w>
l eren</w>
waaro p</w>
kid s</w>
j e.</w>
den s</w>
s li
d y
se c
every thing</w>
t ell
sm all</w>
mo le
du id
b inn
Z o</w>
TE D
C A:</w>
tij d
vir on
pers on</w>
or t</w>
mean s</w>
hal en</w>
fun c
for m</w>
commun ic
sam en</w>
quest ion</w>
li gen
l ine</w>
ha ving</w>
gro e
es s.</w>
st aan</w>
f oc
di en
al en</w>
" Ik</w>
on s.</w>
c ie
re st</w>
lat er</w>
go vern
ge d</w>
w om
thin king</w>
s :</w>
read y</w>
l en
k ken.</w>
ve st
i er
all ,</w>
ab solu
Indi a</w>
mak es</w>
ijn a</w>
ta in</w>
t je</w>
secon d</w>
or e</w>
childr en</w>
v rien
gra ph
g ar
acro ss</w>
ron d</w>
mo ve</w>
ar ti
wat er
sy ch
lie f
vert ellen</w>
mo del</w>
gra f
c ir
b ent</w>
4 0</w>
per fec
ge maakt</w>
M e
volgen s</w>
uit .</w>
su ch</w>
interest ing</w>
sne l</w>
proble men</w>
es s,</w>
con su
bo t
ze ker</w>
aal .</w>
wel l</w>
groot ste</w>
beg inn
beau ti
at ure</w>
Al l</w>
z ing</w>
op .</w>
h ul
f .</w>
ch em
s een</w>
voor beel
dig .</w>
bra in</w>
wer kt</w>
ph ys
h ig
as k</w>
p ul
a way</w>
D N
k t.</w>
c e,</w>
be ste</w>
D a
v ond</w>
v aar
c k
ty p
the m
ough t</w>
ne men</w>
gan g</w>
n er
in nov
en viron
in ste
i ous</w>
u ur</w>
gen :</w>
be ter
pl y</w>
k am
i a</w>
dollar s</w>
d s.</w>
f ron
der .</w>
B u
z es</w>
kno w
ge eft</w>
ge ??n
el ing</w>
de ci
be w
S .</w>
zi ch
bac ter
po wer</w>
mic ro
cam er
sa w</w>
maa t
an ci
ver sit
ture .</w>
n s</w>
at ,</w>
J o
ti ve</w>
h on
f f</w>
f ar
intel ligen
M en
vis u
le ef
kin der
d ?</w>
thing s.</w>
on nen</w>
goe s</w>
gel s</w>
ago ,</w>
u w
tr ic
di s
be do
S he</w>
vel e</w>
twee de</w>
natuur lijk</w>
kra cht</w>
enc e.</w>
O o
D ank</w>
ther ,</w>
t old</w>
energ ie</w>
de fin
year s.</w>
sy n
lik e,</w>
incre di
h een</w>
gr aag</w>
buil ding</w>
r un
p sych
me dic
fun da
vij f</w>
o -
is su
ie f</w>
hou den</w>
b ijna</w>
aal de</w>
j aar.</w>
en ough</w>
at .</w>
an n
F ran
u m
sen se</w>
sci enti
ou d</w>
fic i
he id,</w>
eer st</w>
d it
B :</w>
t an
p en,</w>
e chte</w>
cen tr
th ous
re me
happen ed</w>
do .</w>
di se
za g</w>
v aak</w>
t un
b ab
up .</w>
r ac
b lo
L i
b ru
zo veel</w>
men t
lif e.</w>
energ y</w>
du ur
aa t,</w>
het zelfde</w>
wh o
ur en</w>
so cie
peop le,</w>
loo ks</w>
fil m</w>
up ,</w>
pre c
oplo ss
k s,</w>
e f</w>
ch o
st ellen</w>
en :</w>
c li
atie .</w>
an al
z in
he a
br ing</w>
TE D</w>
M is
men tal</w>
ge dra
fac t</w>
d -
A u
we b
any thing</w>
OK ,</w>
or ig
lan den</w>
ir e</w>
en t
an d,</w>
ver der</w>
te ach
miljar d</w>
kle in</w>
you n
to t
s on
oe l</w>
la p
gebeur t</w>
bil lion</w>
at t
5 0
vol le
tie .</w>
t ten</w>
sp o
qu ic
mar ke
c k</w>
F or</w>
ir d</w>
f lu
su p
s en.</w>
an ce</w>
A s</w>
t on</w>
re .</w>
par t
on es</w>
mu zie
lit er
ic ul
h om
toge ther</w>
oo m</w>
gra p
au to
all er
al most</w>
ur .</w>
n aa
ma ken,</w>
with in</w>
mon th
ie den
i den
he ef
bo th</w>
?? le</w>
th ough</w>
l ing</w>
der ,</w>
pla y</w>
gev en.</w>
en ig
c op
mo del
enc e,</w>
di ep
b ad</w>
re se
compu ter
" O
le ft</w>
fan tast
f rien
en gin
ke ep</w>
en ."</w>
du iz
de s</w>
co g
V oor</w>
whe ther</w>
w ron
ge ven
to ch</w>
o k
n ame</w>
m al
aga in,</w>
stu ff</w>
sp ea
sch e
loo ked</w>
i den</w>
c e.</w>
They 're</w>
per s</w>
mone y</w>
k li
he d</w>
el s</w>
c at
and s</w>
an den</w>
we g
vor m</w>
stu di
re s</w>
f lo
comple x
abil ity</w>
Wh y</w>
wer kelijk</w>
thin k,</w>
gesch ieden
W aarom</w>
H a
wor d</w>
doe l</w>
soci al</w>
comp as
buit en
be sl
s o,</w>
on -
k ree
inform atie</w>
hoo g
con cep
?? ,</w>
mu ch.</w>
W or
peop le.</w>
g or
Un ited</w>
zit ten</w>
ver wa
pers oon</w>
on d
le t's</w>
de mo
c ro
P e
prin ci
ou de</w>
b ri
H ar
war d</w>
uit ein
tur n</w>
sing le</w>
lan gu
l oe
he ard</w>
fo to</w>
cou ple</w>
as ked</w>
ti l</w>
ch ,</w>
S om
L aten</w>
sur e</w>
simp le</w>
si x</w>
ruim te</w>
re den</w>
me ter</w>
l y
geloo f
gel o
P ar
k re
g ir
binn en
sy m
on s,</w>
mo der
h our
all en
me est
hu is</w>
den t</w>
col lec
ug h
interess an
i ,</w>
do m</w>
per so
inform ation</w>
im p
vide o</w>
me an</w>
hi stor
M et</w>
su per
sn el
reas on</w>
li ving</w>
idee ??n</w>
gezon d
ge ts</w>
hig h</w>
??? s</w>
ve il
p rij
acti v
w ell,</w>
o gen</w>
boe k</w>
Z ij</w>
1 8
ture ,</w>
stu k</w>
re ,</w>
kin ds</w>
buit en</w>
a ir</w>
z en
st ij
C on
wor k.</w>
or en</w>
ge st</w>
ele k
19 9
se qu
do e</w>
al ready</w>
a 's</w>
p ap
geb ouw
geb ie
f ood</w>
pr is
mer s</w>
ex ac
d le</w>
c y
bas ically</w>
P ro
soor ten</w>
onder wij
es sen
ach ter</w>
a x
W ij</w>
Ch r
un der</w>
in ten
gebru ik</w>
f as
d ar
U .
z am
d 's</w>
" I</w>
z en.</w>
ta k
t ische</w>
ie u
za ken</w>
wer ken.</w>
tr ac
te x
som mige</w>
peri o
i ze</w>
all .</w>
vo l</w>
righ t?</w>
begrij pen</w>
ap pro
er s,</w>
ta il
t ."</w>
no w.</w>
er van</w>
Afrik a</w>
se e
prec ies</w>
p ur
no g
glob al</w>
g ol
e g
J ap
2 5</w>
op per
wel .</w>
wat er.</w>
v ul
v el</w>
tij dens</w>
m ust</w>
h ol
aan ge
6 0</w>
wel ke</w>
un til</w>
t oo
se erd</w>
op ge
c e
! "</w>
ing en,</w>
tel ef
no thing</w>
kel ijke</w>
gro ep</w>
vin d</w>
v es.</w>
sel ves</w>
kan s</w>
it al</w>
zeg t</w>
to day</w>
i .</w>
c al
" The</w>
ther .</w>
maa l
f ic</w>
be stu
th es
ou ,</w>
ver mo
le er
b ly</w>
an ti
air e</w>
maa kte</w>
st ap
hun dre
gev o
ex tre
d ge</w>
c in
at en.</w>
zi g</w>
sci ence</w>
heid s
bere ik
R e
pic ture</w>
lif e,</w>
me is
comple tely</w>
comp an
bete ken
uit ge
st of
re ad</w>
kle in
gebruik t</w>
cl as
I e
ta ken</w>
opper vla
nie mand</w>
moeil ijk</w>
ke u
k ie
j ij</w>
is n't</w>
is h
in d</w>
gro ei
ding en.</w>
ch allen
O m</w>
Men sen</w>
zi cht</w>
tr ouw
r .</w>
en ts</w>
bo d
b al
t est</w>
mil li
lo ts</w>
le ver
fe ite</w>
du ce</w>
di men
cen tur
aar de</w>
to on
t ab
ra ther</w>
per cen
lear n</w>
ged aan</w>
ef fici
cre ??r
th u
pie ce</w>
kree g</w>
cour se</w>
zich zelf</w>
tie f</w>
soci ale</w>
sc ri
oun t</w>
k ers</w>
b le.</w>
wh er
werel d,</w>
s ."</w>
re gi
ple k</w>
on ce</w>
f ar</w>
N or
' .</w>
ti v
sa ys,</w>
import an
gen e
gelu kk
em .</w>
d oo
bren gen</w>
be ha
E l
van uit</w>
some body</w>
shi p</w>
k un</w>
j our
e :</w>
del ijk
d :</w>
vr ouw</w>
t it
stand ing</w>
sta d</w>
kijk t</w>
in side</w>
ga ve</w>
blij ven</w>
ur ,</w>
ta king</w>
happen s</w>
N iet</w>
wh ile</w>
toekom st</w>
hop e</w>
fig ure</w>
ap par
?? .</w>
se em
pre s
p ast</w>
is ?</w>
g ine</w>
bo ven</w>
me as
coun try</w>
bli c</w>
G oog
men ten</w>
ite it
eer der</w>
c are</w>
br and
M an
vo el
n e</w>
gemeen schap
exac tly</w>
el ijk
ty pe</w>
ra di
l y.</w>
der e</w>
cle ar</w>
bl oe
N u
vi a</w>
possi ble</w>
plane et</w>
kwa men</w>
k we
i p
P o
An d,</w>
sp r
sof tw
fa vor
der de</w>
be s
as h
Mis schien</w>
was n't</w>
te am</w>
or der</w>
he ar
gen aam
diti on
atie ,</w>
Y ea
t in
re volu
re g
k ijk</w>
geloo f</w>
ge zien</w>
ex pec
duid elijk</w>
b at
a go</w>
D us,</w>
te st
m s.</w>
krij gen.</w>
c lu
beauti ful</w>
zor gen</w>
z e.</w>
vr ouwen</w>
v loe
tu ig
spac e</w>
mo v
buil t</w>
zet ten</w>
vlie g
ch ter</w>
z et</w>
ver s
s qu
ge maak
fron t</w>
do ,</w>
Th en</w>
you 'll</w>
vroe g</w>
re cen
or ,</w>
leven s
indu str
ik ,</w>
hand el
gu y</w>
en t.</w>
di eren</w>
D on
voor t
ver l
ten d</w>
ide as</w>
d ing.</w>
B rit
A l</w>
youn g</w>
st o
sp or
k t,</w>
h onder
bas is</w>
Le t's</w>
u l</w>
re f
busin ess</w>
Ear th</w>
t jes</w>
re ac
com bin
ans wer</w>
Yor k</w>
J a
te l</w>
st op</w>
sp i
sin ce</w>
le s
it ?</w>
c ouldn't</w>
b ook</w>
aga in
H I
you r
tra in
m ul
every body</w>
en kel</w>
deci ded</w>
da gen</w>
C ar
ist s</w>
ie ??n</w>
i ve</w>
i ste</w>
disc over
bel ie
H ere</w>
tur ns</w>
su pp
ru n</w>
re d
of ten</w>
n ation
Zo als</w>
s on</w>
port un
op portun
her inn
g al
er s.</w>
at ur
0 ,</w>
th en,</w>
se e,</w>
ri end</w>
nieu w
kil ome
f ys
de pen
beg onnen</w>
ar e,</w>
5 00</w>
z aa
roo m</w>
mens en.</w>
ic .</w>
e er</w>
den :</w>
S a
ver spre
ver bin
mach ine</w>
gre at
e v
d or
b it
ati v
antwoor d</w>
2 00</w>
st at
pra chti
val u
pre ssi
ous ly</w>
om gev
ni ve
indu stri
he et</w>
fin anci
besch er
zeg gen:</w>
rec or
goe d
f en
be d</w>
at h</w>
W an
Americ an</w>
zie k
z in</w>
well .</w>
te ken
pu blic</w>
ch ed</w>
We 've</w>
su g
bep aalde</w>
beha vi
voor al</w>
vis i
univer su
progra m
pr aten</w>
her e's</w>
enor me</w>
engin eer
t te</w>
re cht
lar ge</w>
demo cr
ca r</w>
bo ven
zei ,</w>
stu ff
kijk en.</w>
at mo
uitein delijk</w>
k new</w>
k ing,</w>
g aan,</w>
b aar
Amerik aanse</w>
z e,</w>
w ist</w>
sh ar
sch er
le ven,</w>
krij gt</w>
il y</w>
gev al</w>
ex tr
D aar
1 2</w>
th ro
f ab
el se</w>
S u
thing s,</w>
plaat sen</w>
p ed</w>
moe der</w>
in ven
als of</w>
Ver enig
Afric a</w>
weten schap</w>
some one</w>
som s</w>
sig n
onderzoe k</w>
lan d.</w>
gen en</w>
ar ch</w>
vr ij</w>
vie w</w>
r ie
be came</w>
H ere's</w>
wee k</w>
v al</w>
po ten
on s
ob vi
n ess</w>
lan d,</w>
gro ep
countr ies</w>
we er
t ool
pre ss
o x
j a
di a
atie ve</w>
all y.</w>
aa ld</w>
Chin a</w>
wis kun
w are</w>
te d.</w>
proble ms</w>
plac es</w>
particul ar</w>
k ken,</w>
er den</w>
bl ijk
w omen</w>
v ic
stell ing</w>
ken nen</w>
geb ied</w>
c oo
ago .</w>
T i
" Well,</w>
we 'll</w>
vin den.</w>
univer sit
st -
lan ge</w>
est .</w>
web sit
ver zam
us es</w>
rel ation
ne em
inter ac
ge geven
en e
E x
sp ra
pro tec
presen t
ic ,</w>
gev oel</w>
con si
k oo
en den</w>
U ni
DN A</w>
B ra
zi cht
ze g</w>
z ij
word en,</w>
ve el
tel e
reme mber</w>
kno w.</w>
ima gine</w>
hu ge</w>
he ar</w>
J a,</w>
' s,</w>
vert ell
s en,</w>
oun d,</w>
ou th</w>
natu ral</w>
man ,</w>
ma anden</w>
lich aam</w>
f ro
example ,</w>
cr is
W aar</w>
oun d
j aar,</w>
del ijke</w>
ar gu
actu ally,</w>
D o</w>
Chr is</w>
vor men</w>
st i
moe sten</w>
enti re</w>
cer tain</w>
Wan neer</w>
ture s</w>
oun d.</w>
let ter
grou p</w>
eer t</w>
belangrijk ste</w>
a ver
T er
wil l
tak es</w>
ta f
sa ying</w>
n aam</w>
me chan
mani eren</w>
krij g</w>
in vol
gel open</w>
com pe
can c
bouw en</w>
G re
po sed</w>
per ha
jo b
he ad</w>
bedrij f</w>
N ou,</w>
H u
1 8</w>
y -
waar van</w>
t ar
organ iz
mo ving</w>
m es
l op
kom en,</w>
hal ve</w>
ch ing</w>
b ir
al s,</w>
af han
T e
" ,</w>
wonder ful</w>
tur ned</w>
spe el
ma j
m a</w>
le ast</w>
fu ture</w>
fl ic
contro l
bac k
volle dig</w>
ver halen</w>
ver gelijk
proc ess</w>
k ere</w>
inst itu
var i
ter en</w>
st of</w>
k on
in vest
hoe veel</w>
ac k
Euro p
y s.</w>
ne e
lat er,</w>
exam ple</w>
con fer
chil d</w>
aar d</w>
wor ks</w>
v at
tie ,</w>
t ou
t il
c lim
bacter i
al ong</w>
ver oor
uit da
ro te</w>
m er</w>
cre ated</w>
bu y</w>
ben e
a u</w>
a ff
E ver
E ??n</w>
ver d
pla y
or s</w>
mat ter</w>
lan g
ju iste</w>
ex pla
8 0</w>
z onder
z er
woor d</w>
ver y,</w>
spec ies</w>
moo ie</w>
hou den.</w>
hoof d</w>
ge zeg
ge he
diff icul
be wij
be staat</w>
ama zing</w>
a st
nog al</w>
hoo g</w>
gen e</w>
char ac
am ount</w>
v es,</w>
se ven</w>
s cre
psych olog
hul p</w>
ge vol
experi ence</w>
ex cit
be vol
again st</w>
We et</w>
S ch
Ok a
A I
' s.</w>
year ,</w>
si ze</w>
ont moe
mens en,</w>
le s,</w>
il li
ge hoor
er ing</w>
en 't</w>
dr ie
da ,</w>
bij voorbeeld</w>
bas ed</w>
y 's</w>
see ing</w>
s our
of ,</w>
k r
ge l</w>
di versit
Verenig de</w>
wor k,</w>
s al
perso on
in stru
ij f
happ en</w>
c lear
be l</w>
aal ,</w>
wh at
w en
A ar
we in
real is
oo g</w>
in for
ha d.</w>
go .</w>
en d.</w>
dru k</w>
au di
ar ly</w>
OK .</w>
th ird</w>
mm er</w>
me er
l er
k ing.</w>
ing ?</w>
geschieden is</w>
da ys</w>
u st
to day.</w>
thous ands</w>
le s.</w>
know le
il i
e th
e ."</w>
con struc
beg int</w>
versch il</w>
the mat
tem per
st el</w>
self .</w>
interest ed</w>
hu is
de den</w>
verander ing</w>
un ch</w>
sur vi
st ic</w>
s -
re cog
mo ve
man nen</w>
ate ver</w>
C ol
z war
vor m
st ati
sp ar
righ t.</w>
prof es
plan et</w>
min d</w>
ma s
heal th</w>
can not</w>
b om
La at</w>
J ust</w>
year .</w>
wor ked</w>
v ast</w>
tel ijk</w>
ri ch
or din
no tic
ne w
le vel
kno wn</w>
in spir
c as
C om
schap p
over al</w>
other .</w>
lear ned</w>
lea ve</w>
ima gin
zoe ken</w>
str ate
st ate</w>
per spec
nie t,</w>
mole cu
ma l</w>
le i</w>
h ome</w>
f e</w>
c rit
D aarom</w>
zeg t:</w>
pl at
gel ijke</w>
do c
con flic
c ase</w>
be ,</w>
S e
K en
wat er,</w>
war ds</w>
to ,</w>
sym me
o il</w>
iti on</w>
dr in
c ity</w>
bl ie
besch ik
D en
waar bij</w>
vre em
self -
n ature</w>
minu ten</w>
den kt</w>
dat ,</w>
d ing,</w>
waar mee</w>
ste den</w>
self ,</w>
par a
gro w
gelu k</w>
ear ly</w>
duiz enden</w>
c ed</w>
W est
verander en.</w>
ur ende</w>
tech n
s he
proc es</w>
medi a</w>
lab or
ing en
gir l
di sa
af gelopen</w>
sc en
pati ??n
m s,</w>
li et</w>
iz en</w>
he t.</w>
gen de</w>
col le
Pe op
N o,</w>
va st
though t,</w>
lijk ,</w>
ic k</w>
i m</w>
gev en,</w>
gen omen</w>
No t</w>
N atu
u m.</w>
st ers</w>
mo d
f ur
d ."</w>
car b
be zig</w>
P h
O r</w>
K ijk</w>
z at</w>
ter e</w>
st ond</w>
sc al
op nieuw</w>
na m</w>
n en.</w>
m el
lu ist
ie der</w>
e vi
aga in.</w>
a cht</w>
1 1</w>
0 .</w>
z ig
van .</w>
t t
month s</w>
k s
is e</w>
experi ment</w>
ex pl
dy nam
be per
al ity</w>
You 're</w>
y :</w>
ti g</w>
orig in
n on-
mm a</w>
hel pen</w>
gr ond</w>
gi ven</w>
fe it</w>
compu ters</w>
au th
Ne e,</w>
z we
ver antwoor
vel y</w>
us e,</w>
se x
enc es</w>
ch a
at ten
ander en</w>
al ist
T en</w>
z en,</w>
struc tuur</w>
naa st</w>
lo k
il .</w>
g as
famil y</w>
ation s.</w>
ar e.</w>
ab le.</w>
tij d.</w>
muzie k</w>
mo ther</w>
maat schapp
k ap
ie t
hersen en</w>
emo tion
be h
V ol
C har
ver beter
ver ,</w>
ta ge</w>
sp ron
sh are</w>
pre dic
gewel dige</w>
de cis
co st</w>
beg an</w>
St at
Jo h
C O
tra dition
to day,</w>
ro l
righ t,</w>
res our
over .</w>
in tro
gu ys</w>
beel den</w>
ver lie
ree f</w>
perha ps</w>
op ,</w>
m un
hou se</w>
ge middel
ful l</w>
ex ist
el y,</w>
contin u
be tre
ans wer
aller lei</w>
zor g
war en.</w>
w oe
voed sel</w>
st itu
some times</w>
ou ders</w>
oo t</w>
o s</w>
le x
hi story</w>
at or</w>
ac cep
1 00
" S
wh atever</w>
happen ing</w>
geb ouw</w>
g aan
er n
er gens</w>
de scri
besl is
an en</w>
M on
v u
ter ms</w>
school .</w>
out side</w>
l am
in fra
fac tor
e ten</w>
br ought</w>
b ie
ap pe
v on
sa y
govern ment</w>
funda men
di a</w>
re ken
nam elijk</w>
me tho
m d</w>
k lin
g ers</w>
em er
de a
Wh at's</w>
voor dat</w>
tr ied</w>
natu ur</w>
lo g</w>
k t
inste ad</w>
ic e.</w>
for tun
fol lo
extr a</w>
en ter
cre ??
cl us
cer tain
anim als</w>
Peop le</w>
M id
??n .</w>
stor ies</w>
sim ul
re si
ne g
mus ic</w>
mak kelijk</w>
maa k</w>
l a</w>
de al</w>
On ze</w>
H e's</w>
univer se</w>
no dig.</w>
it h</w>
interess ant</w>
he ad
er d.</w>
at ely</w>
D ar
19 8
vr ouw
tru m</w>
stu dy</w>
sa ys</w>
heef t.</w>
heal th
ex tra
Oo k</w>
Chin ese</w>
win d</w>
se ver
ne eds</w>
ke y</w>
do cu
dise a
com mer
a s,</w>
wein ig</w>
nor m
mole cul
kaar t</w>
k :</w>
e ight</w>
disc us
clo se</w>
b ul
wil den</w>
vr aa
tie ve</w>
sim ply</w>
re den
produc t</w>
men s</w>
ma themat
k om</w>
gebruik en.</w>
foto 's</w>
ti ge</w>
sch u
or .</w>
oo k,</w>
mid dle</w>
lu cht</w>
kra chti
essen ti
cht en.</w>
c el
au tom
R us
A t</w>
won 't</w>
verander en</w>
vaar dig
v acc
us u
that ?</w>
te d,</w>
strate g
sch ol
p as</w>
m ?</w>
lan gs</w>
im pro
gro w</w>
fe et</w>
be se
at e,</w>
T o</w>
S ome</w>
I ra
sp end</w>
sch o
ron d
ite it.</w>
imp act</w>
geb ra
en zo
ac tic
ac e</w>
wer k.</w>
tegen woor
r ig
happ in
ein de</w>
effec t</w>
dur ing</w>
den ken.</w>
belangr ijke</w>
b b
N oor
J u
year -
si ve</w>
sho ws</w>
jo b</w>
inc lu
il o
ic s,</w>
ic e,</w>
h aal
ch e
blijk t</w>
" We</w>
wal k</w>
ver le
tru e</w>
ou sl
ou s.</w>
ou der
m p</w>
k je</w>
jon ge</w>
gen o
gegeven s</w>
geb a
fe it
f t.</w>
ef ul
down .</w>
con cer
be .</w>
atie f</w>
N ig
Goog le</w>
sla g</w>
pat tern
k la
gebeur de</w>
bren gen.</w>
bl ack</w>
beginn ing</w>
allo w</w>
zoe k</w>
zelf .</w>
wetenschap p
w ouldn't</w>
tal ked</w>
star ting</w>
st am
re ally,</w>
o wn
k eer
is hed</w>
ha d,</w>
f s</w>
e it</w>
comple x</w>
ar m</w>
a gen
S :</w>
R i
M :</w>
J ullie</w>
" Wat</w>
pri v
n ,</w>
j ouw</w>
happ y</w>
goe d.</w>
comp any</w>
comm on</w>
are a</w>
ali for
C alifor
vil la
re spec
k ken
gi ves</w>
g ing.</w>
di e
al s.</w>
K or
C am
ur s</w>
tu igen</w>
sm all
m oun
i um</w>
hou d</w>
gr at
ged urende</w>
every one</w>
dimen sion
de tail
ch ter
En gl
va der</w>
s un
n ational</w>
mid den</w>
k ol
k a
gro ter</w>
ga f</w>
cir c
c ru
b all
ati c</w>
S o
A c
vi ol
us h</w>
tij d,</w>
ste un
speci f
recog ni
pp ed</w>
mb ers</w>
hoof d
hi er,</w>
he art</w>
ex plo
contro l</w>
bre in</w>
aar s</w>
H :</w>
B ar
ver ba
they 've</w>
st rij
proble m.</w>
n igh
mensel ijk</w>
kor t</w>
gewe est</w>
gen et
f r
daar van</w>
at e.</w>
anal y
U. S.</w>
sit ting</w>
sel ec
par ts</w>
pa gin
p on
mar kt</w>
ha ven
gev an
foc us</w>
cre ativ
be tal
age .</w>
absolu tely</w>
woor den</w>
vr aag
veil ig
th ank</w>
sp ent</w>
softw are</w>
s ound</w>
li ves</w>
kun st
fas cin
c ellen</w>
ber oe
bel e
ation s,</w>
H oe
wom an</w>
to m</w>
s ul
p el
nee ded</w>
lig t</w>
leu k</w>
in fec
hoe f
genaam d</w>
gelo ven</w>
gal ax
econom ic</w>
commun ity</w>
V an</w>
R igh
I s
19 7
zon ne
y ."</w>
werk t.</w>
thr ough
sur pris
slo ten</w>
ko st
f t,</w>
con centr
camer a</w>
b log
S ome
P er
va il
respon si
pr actic
onder ne
g one</w>
e vol
d ou
ar ,</w>
an g</w>
Nig eri
C o
zeg gen,</w>
writ e</w>
ugh t</w>
th ou
ter ri
su sta
stell en.</w>
st off
perfec t</w>
pa y</w>
in ed</w>
h old</w>
di gen</w>
bedrij ven</w>
Ie der
Ever y
z ing
wa r</w>
ur t</w>
uit ,</w>
ni fic
m igen</w>
lon ger</w>
kre gen</w>
id ing</w>
func tion
er uit</w>
be scha
age ,</w>
Califor ni
AI D
vertel de</w>
su d
real ized</w>
pp en</w>
pa in
p ing</w>
moo i</w>
mes sa
li cht
f ish</w>
den ce</w>
G een</w>
D an
A t
wron g</w>
wereld wij
sle cht</w>
s ;</w>
machin es</w>
k wal
hel ft</w>
gemeen schap</w>
ge ef</w>
N o</w>
M c
C an</w>
19 6
voor sp
voed sel
ton en</w>
t aal</w>
system .</w>
seem s</w>
po se</w>
k ten</w>
ic ally,</w>
hoe veel
fre e</w>
f our
ervar ing</w>
ad van
En gel
C en
tu ral</w>
te xt</w>
re gel
oun ds</w>
ne igh
min ist
mark et</w>
interessan te</w>
he er
ze ven</w>
y et</w>
who 's</w>
wel ,</w>
w rote</w>
trans form
to .</w>
sp ann
sn ell
s at
rese arch</w>
prij s</w>
le ss
i an</w>
ex cep
G :</w>
F or
B i
A S
z z
x ,</w>
t able</w>
struc ture</w>
stor y.</w>
s op
photo graph
oo m
mogelijk heid</w>
mal ari
kenn is</w>
k ool
down ,</w>
bac k,</w>
voor uit
under standing</w>
tor s</w>
tell ing</w>
sur face</w>
p al
ne men.</w>
lo ed</w>
differ ence</w>
de ca
cre??r en</w>
cont act</w>
c ell</w>
as s
vir tu
te mp
succ es
st ig</w>
si on,</w>
poten ti
ne ws</w>
n aar
le vel</w>
is m</w>
gr en
gen om
gemaak t.</w>
f la
enzo voor
dig it
cap ac
c ut</w>
bedo el,</w>
b ree
ab out.</w>
a at</w>
R a
N ational</w>
L u
Ieder een</w>
zo .</w>
vin dt</w>
studen ts</w>
stri bu
sen d</w>
sch il
mi les</w>
h ij
di stribu
di st
au to</w>
as pec
a vail
Z el
W ie</w>
M us
"O h,</w>
vis ion</w>
tro kken</w>
run ning</w>
pro to
k ar
inter net</w>
il ,</w>
gl am
g la
f is
difficul t</w>
di sp
bewe ging</w>
vermo gen</w>
u m,</w>
t ap
st aan.</w>
si mil
r in
pro gre
pl an</w>
no dig
le i
in tu
ic es</w>
ic a</w>
hour s</w>
gro wing</w>
ge??n ter
be kend</w>
a gre
" What</w>
" H
ver ge
universu m</w>
s he's</w>
peop le
ordin ary</w>
on geloof
mo bi
le erde</w>
kom ende</w>
k n
ij nen</w>
gro tere</w>
fig u
f ly</w>
en ough
eer d.</w>
de gre
clim ate</w>
at om
Z ijn</w>
S p
O n</w>
Mar s</w>
E ven</w>
C an
v onden</w>
studen ten</w>
ru p
re qu
pre si
nu ,</w>
ne uro
ke ur
k u
incredi ble</w>
for d</w>
en tie</w>
en ga
com plic
bouw en.</w>
T a
O ur</w>
O r
vi er
toge ther,</w>
te gr
si on.</w>
say ing,</w>
s mar
our selves</w>
neem t</w>
n .</w>
my self</w>
me et</w>
li kel
li fe
j ou</w>
isch .</w>
haven 't</w>
ful .</w>
develop ing</w>
beter e</w>
L et</w>
Indi a,</w>
Ch ri
wil t</w>
waar door</w>
v all
sin ds</w>
questi ons</w>
pec i
maj or</w>
is me</w>
gr and
f ree
evolu tion
Nu ,</w>
Indi a.</w>
G en
Bu t,</w>
Amerik a</w>
zei den:</w>
z om
u t
stel sel
publ ic
pol ic
over ,</w>
objec t</w>
natuur lijke</w>
minu tes</w>
ma g</w>
j es.</w>
j a,</w>
it self</w>
ik .</w>
i th
hi er.</w>
en t,</w>
d d
co de</w>
b an</w>
ar en</w>
T ur
S outh</w>
O h,</w>
N a</w>
Inter net</w>
9 0</w>
worl d's</w>
we ken</w>
tr on
sch reef</w>
ru s</w>
r ijk
pu tting</w>
ons zelf</w>
oce an</w>
meest al</w>
leg gen</w>
lan ger</w>
incredi bly</w>
gr on
gevo el
do en?</w>
d ood</w>
cell s</w>
bac k.</w>
am ,</w>
??n ,</w>
" A
ti en</w>
school ,</w>
sch e</w>
s w
nieu ws</w>
h aa
g ame</w>
c ri
b bel
all s</w>
al tern
ab out,</w>
Z u
5 ,</w>
1 7
sle chte</w>
oor log
nu clear</w>
lo st</w>
lo s
lijk .</w>
k king</w>
hundre ds</w>
en d,</w>
c la
be comes</w>
b on
Wor ld</w>
A ,</w>
3 00</w>
3 0
ver s</w>
str an
sh or
se em</w>
reg ul
pro duce</w>
o gen
loo t</w>
lear ning</w>
langu age</w>
kun st</w>
cur r
aga in</w>
a s.</w>
toge ther.</w>
studen t</w>
oe s</w>
mor e.</w>
k ly</w>
ima ge</w>
hor en</w>
gr ound</w>
f elt</w>
di er
ch i
any body</w>
D o
1 ,
" You</w>
theor ie</w>
real ize</w>
om en
neigh bor
ne ur
n er</w>
moeil ijk
man .</w>
gelukk ig</w>
g aat.</w>
fi el
famil ie</w>
boe ken</w>
Yea h,</w>
H er
Da vi
D oor</w>
wat ch</w>
w ood</w>
vrien den</w>
tion s.</w>
symme tr
sho wed</w>
re cht</w>
pa th
noem en</w>
ne y</w>
maak ten</w>
loc al</w>
gi ving</w>
est ,</w>
er op</w>
energ ie
ab o
Z e
wh ite</w>
vo er
sc ale</w>
robo t</w>
ma ss
ma in</w>
econom ische</w>
commer ci
chan ged</w>
ch ten
beh ind</w>
ar r
Natu ur
E inste
v ing
system s</w>
sub jec
sig nific
oo k.</w>
onder wer
momen t,</w>
kl aar</w>
kijk en,</w>
hal en.</w>
di es</w>
ar t
ar s</w>
aa s</w>
B ij</w>
z on</w>
wer ken,</w>
we ,</w>
sta p</w>
mil it
ke ek</w>
ic s.</w>
gewel dig</w>
ger e
e t.</w>
der en.</w>
de tec
con sci
b le,</w>
sl uit
power ful</w>
ou s,</w>
ge??nter es
de m
bra cht</w>
be hoef
M I
zei den</w>
waar de</w>
voor .</w>
van af</w>
sp elen</w>
popul ation</w>
mb er,</w>
iz ation</w>
i f
high -
ge s.</w>
ex per
er voor</w>
den ?</w>
am .</w>
af .</w>
a -
you 'd</w>
t a</w>
si ons</w>
ph one</w>
other ,</w>
nam en</w>
n ight</w>
mo ved</w>
loo p</w>
li ved</w>
kno ws</w>
in e,</w>
hu i
go ,</w>
gedra g</w>
for ce</w>
da chten</w>
bl in
ate d.</w>
St ates</w>
N a
M al
we ge</w>
we g.</w>
ver ra
su s</w>
ste p</w>
re ven</w>
r or
p oor
miljo enen</w>
mid delen</w>
m ate</w>
letter lijk</w>
l open</w>
i ons</w>
gelu id</w>
eas y</w>
ag no
S an</w>
B a
' ,</w>
wor k
t y,</w>
susta in
succ ess
ster r
si de.</w>
publ iek</w>
p s.</w>
milli ons</w>
ma in
lon g
j es,</w>
ima l</w>
ho sp
ff en</w>
er in</w>
direc t</w>
del en.</w>
ch es</w>
al ing</w>
aff ec
z aak</w>
v le
to wards</w>
te ach</w>
t y.</w>
st ree
p s,</w>
kor te</w>
han den</w>
ge ??
g ig
ex pen
e at</w>
daa d
concep t</w>
chan ges</w>
bil ity</w>
Uni versit
An der
t ly,</w>
sur fac
ri cht
re gels</w>
re a
profes sion
oce aan</w>
infor mat
ik i
hy dro
hou dt</w>
gele den,</w>
g t.</w>
experi men
evolu tie</w>
dom in
discover ed</w>
ch ec
ben ef
ac coun
aan dacht</w>
V eel</w>
vi rus</w>
stuff .</w>
sla gen</w>
ris ic
photo grap
p oor</w>
oor log</w>
mul ti
l ijn</w>
jour n
incre as
gre en</w>
gebie den</w>
enor m</w>
ef ul</w>
e um</w>
e t,</w>
desig ned</w>
am p
1 2
" De</w>
y l
w inn
toe pas
sta ur
plan et
phys ical</w>
p oe
nie t?</w>
ig .</w>
ge k
g ere</w>
ei ther</w>
blij ft</w>
b aan</w>
aar d
Ste l</w>
A .</w>
zit ten.</w>
word t.</w>
wor th</w>
stel de</w>
sol ve</w>
scienti fic</w>
resul t
r ation
on den.</w>
ma p</w>
lu cht
lo w
ker n
geba seerd</w>
em p
con ven
an o
Ter wijl</w>
H ol
Don 't</w>
ter m</w>
st om
progra mma</w>
pres ent</w>
plac e.</w>
ne t.</w>
ne er
ist ,</w>
gew one</w>
g aat,</w>
fil m
develop ed</w>
aver age</w>
ash ing
Zel fs</w>
W ashing
P u
M il
Ge or
D i
Afric a.</w>
z waar
war m
re staur
re ger
progra m</w>
o :</w>
nec ess
n ach
ke t
gezond heids
g as</w>
chan ging</w>
br an
a da
- year-
tr ou
thu is</w>
system en</w>
su ff
se par
sa ve</w>
s il
s '</w>
ro man
pro per
person al</w>
opportun ity</w>
nam ed</w>
n ice</w>
kom t.</w>
knowle dge</w>
in tegr
han d,</w>
ge geven</w>
evolu tion</w>
es peci
con diti
bes loot</w>
ben t,</w>
b loc
at en,</w>
al ge
W iki
No g</w>
F ir
zie kte</w>
tu ig</w>
sp el</w>
socie ty</w>
s us
r y,</w>
on y</w>
nation ale</w>
lo se</w>
enor m
educ ation</w>
ch ?</w>
bil li
be dan
ate d,</w>
at er</w>
an imal</w>
ac u
Ok ??,</w>
1 6
ye a
verh aal.</w>
v it
te erd</w>
t ac
st e,</w>
ref lec
on to</w>
liter ally</w>
ha ve,</w>
geda an.</w>
gebeur en</w>
ge est</w>
di er</w>
con vers
bl u
aag d</w>
B ij
wor ds</w>
vol was
sim ple
re por
pla ying</w>
or i
ma .</w>
m ijn
kilome ter</w>
k ill
in flu
de -
cre ating</w>
be y
b er</w>
ac y</w>
H el
u .</w>
th is?</w>
ter e
str en
ster ren
sl aa
si de,</w>
ro t
rich ting</w>
po st
