#version: 0.2
e n</w>
e r
t h
e n
i n
a n
a t</w>
o n
e l
e t</w>
a a
s t
d e</w>
a l
th e</w>
o r
i s</w>
e r</w>
o u
a n</w>
i j
a r
a t
i t
c h
i n</w>
r e
d i
in g</w>
o o
e en</w>
o f</w>
t o</w>
l e
g e
b e
i e
r o
an d</w>
v er
o m
h et</w>
d e
h e
v an</w>
w e</w>
en .</w>
i s
aa r</w>
d at</w>
i l
w a
i c
i t</w>
t e</w>
n o
h a
th at</w>
o u</w>
w h
e s
in g
e d</w>
l i
o n</w>
a c
z e</w>
' s</w>
m e
u s
v e</w>
o l
o p
t i
w e
j e</w>
d er
en ,</w>
u n
? ?
n d</w>
i g
o e
r a
y ou</w>
u r
th e
m a
- -</w>
al l
a l</w>
A nd</w>
d en</w>
ij n</w>
i k</w>
s ,</w>
s .</w>
s e
t er
o r</w>
w er
t e
wa s</w>
di e</w>
k e</w>
a b
n e
l o
s ch
oo r</w>
m en
l e</w>
p ro
d o
a s
t .</w>
m o
s p
i j</w>
t o
T h
u l
w or
at i
a m
n i
th is</w>
t ,</w>
o p</w>
d ,</w>
d .</w>
o or
e ,</w>
t en</w>
ou t</w>
e c
al s</w>
e s</w>
c om
ar e</w>
r i
o m</w>
z ijn</w>
v er</w>
aa n</w>
aa r
t s</w>
g o
e .</w>
ni et</w>
e l</w>
u t</w>
p l
s i
h o
er e</w>
g en
m et</w>
r u
y ,</w>
I k</w>
k en</w>
c on
p er
g el
s t</w>
v oor</w>
ha ve</w>
f or</w>
z e
d a
d en
W e</w>
d u
ij k</w>
s a
l d</w>
i r
t r
all y</w>
w it
m e</w>
l a
y ou
v e
z i
H et</w>
g en</w>
v en</w>
en t</w>
o ver</w>
t u
he b
e x
wit h</w>
s e</w>
' t</w>
al l</w>
a s</w>
b e</w>
g e</w>
a p
s en</w>
p e
h i
w at</w>
g r
on e</w>
n en</w>
the y</w>
s om
an d
el l
u it
ab out</w>
E n</w>
e f
wh at</w>
l y</w>
k un
c an</w>
b en</w>
y .</w>
ij k
a an
an t</w>
ro m</w>
f or
s u
t a
ch t</w>
on s</w>
h u
e m
ou ld</w>
di t</w>
b o
r e</w>
s o</w>
n aar</w>
m an
p o
oo k</w>
de ze</w>
. "</w>
i d
t er</w>
no t</w>
u s</w>
ig h
ver y</w>
i m
e er
st e</w>
d er</w>
ij n
ic h</w>
i k
' re</w>
k no
us e</w>
us t</w>
c a
i e</w>
w il
an der
c h</w>
I '
d o</w>
m aar</w>
d an</w>
t w
v oor
th er
ha d</w>
v i
v ol
pe op
z o
g a
th er</w>
f f
heb ben</w>
th at
n ie
?? ?</w>
f rom</w>
it 's</w>
S o</w>
c i
st e
r ij
ie s</w>
i d</w>
h e</w>
m aa
k ing</w>
th ing</w>
m y</w>
w ,</w>
li ke</w>
c e</w>
ou r</w>
t el
y e
ge b
q u
ing .</w>
p re
ing en</w>
m or
p ar
es e</w>
k om
h er
D e</w>
g ro
Th e</w>
j ust</w>
k in
k el
m ijn</w>
d oor</w>
th in
k en
b ut</w>
kun nen</w>
z el
men sen</w>
t en
s el
d s</w>
k e
ou g
peop le</w>
p p
A l
i f</w>
e st
al le
m oe
u it</w>
a f
on der
ati on
h el
ho w</w>
d el
B ut</w>
go ing</w>
th ese</w>
ing ,</w>
M aar</w>
D it</w>
st u
com p
f e
w ar
pro b
b l
w i
o ver
c re
k an</w>
in ter
v en
b el
b r
t 's</w>
w aar
el d</w>
o ,</w>
at e</w>
i de
g ra
is ,</w>
ou n
m er
s y
b y</w>
m in
a d
i r</w>
b u
0 0</w>
be ca
l an
s en
wh ich</w>
er en</w>
t ij
is .</w>
W h
beca use</w>
g et</w>
z ijn
th ere</w>
d on
Z e</w>
D at</w>
ye ar
u p</w>
som e
ati on</w>
k .</w>
on t
be g
m il
ve el</w>
p a
wh en</w>
w ant</w>
Th is</w>
a r</w>
i st
in e</w>
I n</w>
t ed</w>
k ,</w>
ge v
s h
d en.</w>
b ij</w>
is ch
m u
h ij</w>
t ing</w>
am e</w>
z ou</w>
thin k</w>
e p
s it
w ould</w>
t ur
ij ke</w>
s c
k t</w>
st a
es ,</w>
re ally</w>
se e</w>
N o
g een</w>
you r</w>
I' m</w>
b i
th ing
w aar</w>
lo g
T he
t al
es .</w>
er s</w>
mor e</w>
I t's</w>
ef t</w>
s o
n 't</w>
ou r
at en</w>
a u
igh t</w>
es t</w>
d r
e 's</w>
o ther</w>
z o</w>
wer e</w>
ac tu
m en</w>
st ar
l u
a ,</w>
m .</w>
the ir</w>
?? n</w>
wh o</w>
ha s</w>
w el
no g</w>
aa l</w>
ho e</w>
er .</w>
g i
er ,</w>
t h</w>
l ijk</w>
it .</w>
isch e</w>
me er</w>
hu n</w>
prob le
st r
ti on
a ch
l oo
wh ere</w>
Y ou</w>
som e</w>
f in
J e</w>
e t
that 's</w>
don 't</w>
it y</w>
ou w
g o</w>
w at
oo d</w>
k en.</w>
on ze</w>
zel f
j aar</w>
m at
p r
th en</w>
in to</w>
to t</w>
w n</w>
l it
c en
li e</w>
f ac
te ch
b ac
w ij
g re
Al s</w>
k s</w>
i er</w>
t ra
ie ts</w>
pl an
du c
t we
a .</w>
v el
ou nd</w>
wil l</w>
the m</w>
I t</w>
c o
t re
D us</w>
v o
i z
zi en</w>
b er
ze g
di g
as t</w>
at u
he eft</w>
actu ally</w>
ha pp
I n
n u</w>
wa y</w>
i c</w>
st or
v r
S o,</w>
en de</w>
k le
ul lie</w>
u r</w>
kno w</w>
ch t
g an
hi er</w>
ander e</w>
he id</w>
l en</w>
j ec
p le
d ing</w>
g u
m ,</w>
t ie
p or
he b</w>
t ic
i d,</w>
m ar
r on
b een</w>
nie u
ch an
e en
ma ke</w>
h oo
wor d
m is
v an
st er
c ould</w>
h ou
th o
g er
geb ru
t le</w>
no log
ti me
v in
w an
' ve</w>
l ie
j ullie</w>
kin d</w>
oo n</w>
s ig
ti on</w>
go t</w>
s er
en d</w>
di ff
m on
o c
ati e</w>
z on
g aan</w>
al e</w>
oug h</w>
t ro
thing s</w>
o f
m an</w>
h ar
il l
tech nolog
v ing</w>
oug h
sp ec
tij d</w>
d ingen</w>
p en</w>
aa t
r el
f ir
m b
f u
moe ten</w>
aa l
g en.</w>
z al</w>
ig e</w>
p h
H ij</w>
a d</w>
li f
A f
zijn .</w>
he el</w>
j o
h al
lit tle</w>
on .</w>
om dat</w>
men t</w>
com e</w>
n u
t oe
. .
at 's</w>
di g</w>
e ig
e ven</w>
aa g</w>
ab le</w>
v or
on ,</w>
W at</w>
mo st</w>
g ing</w>
e cht</w>
en c
? "</w>
du s</w>
p u
th an</w>
re c
E r</w>
y s</w>
d y</w>
o g
s oor
some thing</w>
diff er
z a
m p
g .</w>
c an
H o
y ing</w>
mo et</w>
it ,</w>
l ar
The y</w>
k ed</w>
s s
wer eld</w>
in n
kno w,</w>
at ie
it e
0 00</w>
ver sch
s s</w>
C h
zo als</w>
g oe
s l
tho se</w>
?? n
v is
l ook</w>
c ar
e m</w>
tw o</w>
ti e</w>
we 're</w>
an k</w>
year s</w>
wi l</w>
d at
do en</w>
e ver
s or
be ur
fir st</w>
d en,</w>
l in
re e
s ol
wor den</w>
s ur
k an
k rij
n o</w>
c ol
?? ??n</w>
ge w
E en</w>
ti me</w>
wor l
ga at</w>
ell ,</w>
h ere</w>
l l</w>
z ich</w>
pro c
the y
st ru
twe e</w>
h an
for m
n atu
sch ap
on ly</w>
ge beur
es s</w>
i en</w>
per i
ne w</w>
lo t</w>
d ol
i g</w>
sa id,</w>
no w</w>
per s
we l</w>
o b
li g
A mer
1 9
pl a
le ven</w>
d oe
le .</w>
t en.</w>
f t</w>
.. .</w>
er g
m id
es s
N e
b as
al so</w>
h is</w>
bel an
j ar
ol og
bu il
pro duc
f i
u p
w aa
k en,</w>
d n't</w>
mu ch</w>
oo l
ver ander
on g</w>
se ,</w>
it i
n a
0 0
d an
ou s</w>
f a
No w,</w>
th r
bac k</w>
le s</w>
den k</w>
you 're</w>
maa l</w>
k o
on d</w>
ta ke</w>
b re
d ra
p ol
word t</w>
c oun
t or
gr oo
gel e
de sig
de d</w>
pl ac
de .</w>
d aar</w>
wor ld</w>
Wh at</w>
wer el
p ut</w>
W e
g ,</w>
z oe
f ec
ic al</w>
d ri
eer ste</w>
all e</w>
in ,</w>
de ,</w>
at ed</w>
le ,</w>
ever y
s le
ne ed</w>
heb b
k er
an y</w>
l aten</w>
s si
comp u
all een</w>
z ie
f il
ze i
r it
un der
der en</w>
D e
en ce</w>
man y</w>
t ?</w>
por t
un i
ma ken</w>
bo dy</w>
happ en
h oe
t y</w>
go ed</w>
ell en</w>
we et</w>
m and</w>
g er</w>
in .</w>
tu re
O n
b ij
p er</w>
ther e's</w>
s he</w>
v a
v es</w>
st em
soor t</w>
r ight</w>
zel f</w>
k wa
di c
or gan
t s.</w>
oo it</w>
th re
en erg
e i
ur e</w>
m om
di d</w>
b in
f o
on om
hel e</w>
el e</w>
ac h</w>
an y
t al</w>
sch a
gel ijk
belan gr
ter u
ol d</w>
wer d</w>
c ul
com m
ar ound</w>
s ci
f un
me e</w>
k ken</w>
I f</w>
is ch</w>
er g</w>
b en
v oe
on ge
k er</w>
war en</w>
pro jec
me an
st en</w>
s la
b ra
h aar</w>
g en,</w>
w s</w>
to en</w>
l ijk
il l</w>
e very</w>
r ic
it s</w>
wor k</w>
be ing</w>
stru c
gro te</w>
gebru ik
on den</w>
h and
ou den</w>
tr an
n et</w>
is t</w>
w .</w>
ch ten</w>
s m
W ell,</w>
k te</w>
g ood</w>
d aar
tur e</w>
s ame</w>
differ ent</w>
b le</w>
all y,</w>
vol u
n a</w>
thr ough</w>
man ier</w>
e in
op en</w>
ch il
they 're</w>
l at
c alle
sy ste
z ul
T o
re al
comp le
r an
ic e</w>
w in
h ,</w>
e p</w>
m s</w>
z en</w>
v ar
t en,</w>
ex peri
i ma
alle maal</w>
v en.</w>
v al
er d</w>
c u
A n
calle d</w>
i on</w>
b il
at e
st .</w>
sch ien</w>
ie .</w>
t s,</w>
con t
s n
t ru
kom en</w>
do ing</w>
sta at</w>
we e
m ij</w>
w n
do wn</w>
e e
st ,</w>
re s
zijn ,</w>
v ed</w>
f am
be t
Th at's</w>
1 0</w>
e a
In di
c or
li on</w>
th ough
nieu we</w>
aan .</w>
a ga
uni ver
do en.</w>
b oo
sp re
p en
g t</w>
z ouden</w>
qu est
ne er</w>
be el
vol gen
i l</w>
wi th
k ijk
p as
I' ve</w>
eig en
ec onom
s ho
t ly</w>
g in
ha d
gen er
da y</w>
p ic
le ar
f ic
el ijk</w>
d ru
k l
?? ?
st and</w>
it e</w>
el k
c ame</w>
us sen</w>
di ge</w>
t y
fu l</w>
b oe
tr y</w>
r igh
k ra
zelf de</w>
el ,</w>
ma de</w>
me ,</w>
wat er</w>
us ,</w>
he m</w>
thre e</w>
in t</w>
d re
r oo
ma k
that ,</w>
ve er</w>
f l
wer k
st an
sa y</w>
do or
H e</w>
im port
h er</w>
lig h
gel u
ri k
a m</w>
le a
oo l</w>
ik kel
er en.</w>
per c
G o
st el
c r
we ten
so ci
l ast</w>
w er</w>
ar y</w>
zul len</w>
j u
er i
c our
kun t</w>
b a
ro e
ma ch
ie ,</w>
at ing</w>
kin deren</w>
de el</w>
natu ur
ation .</w>
Th ere</w>
n am
een s</w>
en ?</w>
kom t</w>
' ll</w>
v ir
ie mand</w>
e ds</w>
c l
De ze</w>
y s
tal k</w>
o ff
den ken</w>
w oor
c ur
ou w</w>
l and
ij ken</w>
g a</w>
ar ch
S t
H ier</w>
maa kt</w>
hu man</w>
ation ,</w>
mb er</w>
se .</w>
s k
fam il
sy stem
be sch
we ten</w>
w ent</w>
kel ijk</w>
j es</w>
el e
n ing</w>
sor t</w>
comm un
w al
p ri
on tw
me .</w>
inter est
kle ine</w>
se con
lif e</w>
onge veer</w>
x t</w>
wh y</w>
br en
E n
c er
be eld</w>
en ti
ver t
el en</w>
2 0</w>
ie ve</w>
ie d</w>
versch ill
pl aat
5 0</w>
gew oon</w>
zi en.</w>
tel l</w>
ol e</w>
a ge
wa ys</w>
l and</w>
alle s</w>
ver h
on der</w>
fin d</w>
si de</w>
e d
di dn't</w>
t ting</w>
b or
u m</w>
ac t</w>
s how</w>
mil jo
in form
dri e</w>
gi ve</w>
al i
p un
wil len</w>
ch te</w>
st and
p aar</w>
v e,</w>
we 've</w>
b ouw
aar .</w>
m m
ter s</w>
a ir
a ge</w>
z or
ze er</w>
b an
le g
d ing
, "</w>
p at
be te
aa k</w>
, 000</w>
n ed</w>
g l
er e's</w>
us ed</w>
star ted</w>
p s</w>
me e
can 't</w>
wer k</w>
star t</w>
min u
f ul
ontw ikkel
sh ould</w>
be d
t ussen</w>
a f</w>
gr ij
ou l
ie der
M ar
k on</w>
V er
you .</w>
ri en
ar d</w>
us .</w>
w ij</w>
mis schien</w>
that .</w>
sa y,</w>
T E
ge ven</w>
spec i
al .</w>
be for
w is
ie s.</w>
as e</w>
er de</w>
zelf s</w>
t s
sol u
had den</w>
m i
zon der</w>
gre at</w>
bi g</w>
scha p</w>
dol lar
aa rom</w>
Ho e</w>
perc ent</w>
al ,</w>
af ter</w>
c ep
Af ric
w ing</w>
tw oor
el .</w>
da g</w>
ne t
an other</w>
it y.</w>
le d</w>
ite it</w>
der s</w>
om e
B ec
wa s,</w>
an twoor
ide e</w>
z ij</w>
Th at</w>
p le</w>
te gen</w>
Ch in
st ell
n or
gel oo
zi et</w>
hi er
verschill ende</w>
ge sch
e ar
lo c
v e.</w>
ie s,</w>
m us
M a
Amer ic
b uit
o ther
gen oe
st ri
me di
ex am
Amer ik
f er
pro gra
ou s
groo t
el ke</w>
b it</w>
k k
eer d</w>
c ap
se s</w>
le c
n ooit</w>
maa k
zeg gen</w>
aa g
th is.</w>
li m
ne ver</w>
p e</w>
sel f
ou t
con tro
ver k
ne c
' n</w>
men s
po sit
o wn</w>
Bec a
wh ole</w>
gel ijk</w>
v ie
j e
O K
s hi
ru im
del ijk</w>
ter .</w>
a go
po ssi
le ven
p ec
el y</w>
hebb en.</w>
ati ons</w>
t on
su c
it u
su b
loo king</w>
chan ge</w>
v en,</w>
i d.</w>
zei :</w>
re d</w>
an ,</w>
ma ken.</w>
v ra
doe s</w>
aa m</w>
to ge
ge d
b ro
pol it
ke er</w>
h oor
no dig</w>
p .</w>
ide a</w>
h or
ze t
ne xt</w>
m ight</w>
v and
stu den
r en
m y
om en</w>
c am
Af rik
par t</w>
her e,</w>
ch ti
c it
bl ij
st ill</w>
in cre
coun tr
do es
elk aar</w>
oc e
ie k</w>
Beca use</w>
par tic
men sel
e volu
wan neer</w>
wa s.</w>
z it
s in
eig en</w>
plan e
e el</w>
fe w</w>
Wh en</w>
te ,</w>
zi e</w>
worl d.</w>
ge ,</w>
e ach</w>
com es</w>
b li
pl aa
k ijken</w>
di sc
wa s
sch ool
organ is
eigen lijk</w>
be grij
u ro
h op
b aar</w>
t -
at or
No w</w>
Ho w</w>
si mp
re ad
man i
de vel
ch t.</w>
st op
ac ti
ef fec
the m.</w>
de l</w>
en s</w>
da cht</w>
d t</w>
plaa ts</w>
l aat
heb t</w>
mom ent</w>
her e.</w>
t ri
does n't</w>
bed rij
p en.</w>
Th ank</w>
stor y</w>
si m
. 000</w>
vi de
ste eds</w>
q uit
sa men
be tw
pu bl
ther e.</w>
l y,</w>
To en</w>
chil dr
sch ijn
2 00
an .</w>
v roe
r is
ge s</w>
N u</w>
be et
ic ally</w>
al tijd</w>
waa rom</w>
u g
k id
wa y,</w>
m en.</w>
ont de
e ver</w>
wor den.</w>
re as
we g</w>
op en
b us
Ne w</w>
jar en</w>
h en</w>
er t</w>
nie t.</w>
ber e
te .</w>
betw een</w>
M ijn</w>
2 0
suc c
of f</w>
though t</w>
j on
he 's</w>
i ken</w>
ze i</w>
miljo en</w>
mat eri
del en</w>
a g
th is,</w>
sp ac
is h</w>
an s</w>
p ra
om e</w>
mil lion</w>
c le
ar e
ab ly</w>
st re
le t
ge .</w>
?? r
ge me
l ong</w>
ing s
vr aag</w>
ch ar
f ound</w>
at es</w>
in di
he t
dat a</w>
weten schap
lo b
be st
p an
time ,</w>
si on
p t</w>
c lo
aan ,</w>
sa id</w>
wan ted</w>
y be</w>
ch ts</w>
L e
to e</w>
k or
v ij
1 00</w>
time s</w>
import ant</w>
aar ,</w>
O k
de el
d iti
zo 'n</w>
vin den</w>
time .</w>
teru g</w>
kwa m</w>
be p
ander s</w>
waa ro
ab il
th ing.</w>
ont wer
beet je</w>
la at</w>
ation al</w>
mar k
si on</w>
s lo
t :</w>
b ar
aan tal</w>
tion .</w>
p op
c all</w>
b ur
tr ying</w>
cont in
it y,</w>
d ro
k op
m oo
le id
y s,</w>
wij l</w>
s am
pre sen
dr aa
be we
en or
eer de</w>
te gen
3 0</w>
me s</w>
l ijke</w>
desig n
quest i
hal f</w>
p ie
laat ste</w>
gen s</w>
e d.</w>
all o
E ar
D ie</w>
w onder
goe de</w>
an c
wer ken</w>
twe e
mon e
ra l</w>
li k
ch .</w>
be st</w>
zo dat</w>
s ne
la r</w>
ieder een</w>
f ig
b are</w>
re al</w>
onder zoe
no em
di rec
I' ll</w>
th .</w>
li ch
al ways</w>
wil de</w>
to p</w>
res ul
plac e</w>
al s
sp e
le ss</w>
ie ke</w>
belangr ijk
the or
sel f</w>
pl ic
f ra
t op
ar i
a k
beg in
v lie
pre t
ma y</w>
h y
ge wel
k ent</w>
u n</w>
wh at's</w>
ouw en</w>
e d,</w>
we er</w>
us ing</w>
el k</w>
bi olog
Th ere's</w>
da y,</w>
s ?</w>
j e,</w>
desig n</w>
aan se</w>
st ic
sch ool</w>
pro be
ter ,</w>
p ,</w>
l on
hoo f
do wn
d in
z u
quit e</w>
p lo
ac k</w>
ob jec
com ing</w>
befor e</w>
aa m
v re
in du
ro bo
proble em</w>
li ve</w>
an g
k il
' d</w>
it ed</w>
t ook</w>
oo d
gebru iken</w>
under stand</w>
me est</w>
fo to
dol lar</w>
bet ter</w>
inter ess
The se</w>
verh aal</w>
oul dn't</w>
fac t,</w>
ach ter
v la
f our</w>
devel op
O p</w>
sp el
in tel
all en</w>
wor king</w>
b la
ye ar</w>
and er</w>
oo g
e ven
z it</w>
r y</w>
you ,</w>
il e</w>
e y
c ell
voor beeld</w>
tion ,</w>
hoo p</w>
e k</w>
mach in
ge da
f an
ge tting</w>
ta in
pr in
vi er</w>
pop ul
gele den</w>
w rit
proc ent</w>
is :</w>
f re
en en</w>
ser v
lan g</w>
ken n
gel d</w>
an s
he al
m ic
do en,</w>
re sp
pers on
ti c</w>
t om
ou t.</w>
kel e</w>
er en,</w>
I' d</w>
y ?</w>
th ,</w>
be au
wa y.</w>
i ch
volgen de</w>
s ha
v ou
c is
no w,</w>
g s</w>
em aal</w>
Y ou
bin nen</w>
ati ve</w>
zi en,</w>
mom en
moe il
cour se,</w>
si e</w>
hebb en,</w>
d om
po int</w>
d one</w>
ou t,</w>
ig en</w>
e ?</w>
